11101001
00001010
00010110
00000111
00000001
11110010
11111110
11100000
11111100
00011001
00000101
00000010
00100100
11111111
00100010
00000000
00001101
11011000
10111011
11100101
00011100
11101100
11100000
11110000
00010110
00001100
11110000
00000101
00011111
00010110
00100111
00001000
00000111
11101000
00010100
00011010
00000010
11011010
00010111
00010001
11111000
00100001
11010011
00010010
11111101
11110100
11100101
11110011
00010111
11110100
11100110
11110000
00001010
00000001
11101011
00011101
00010101
11110111
11110010
11100011
00001010
11100100
11101000
11111111
11111101
11011001
00001101
00000011
11110110
11011111
11100111
00001010
00000101
11101110
00010110
11111001
11011011
11110111
11000110
00001010
00011110
11011011
11110101
00010101
00000111
11111011
11111101
11101010
00011010
00011100
00011001
00100101
00100000
11110110
11111101
11111100
00001011
11101101
00001101
11101000
11100011
00010100
00000011
00001001
00100001
11101100
11111001
11011011
00010110
00010100
00011111
00011110
00000100
11111011
00000110
00010101
11111010
11100001
00001000
00001100
11110111
00011100
00001110
11110011
00001001
00011110
00001111
00000011
11101110
11100110
00100100
00001101
11011110
00001011
00001110
00000110
00001110
10110111
01000001
00000010
11011010
00000001
00000010
00011010
00001010
00011001
00010011
00100100
00011100
11011000
10111101
00000010
00001011
11100000
00010011
00000010
11011111
00001100
00100000
00100010
11110110
11111011
00001100
11100011
11011000
11101011
11111010
00011111
11101100
00100000
11110000
11111011
11011101
11000000
00011100
11101110
11011111
00010111
00100001
00000010
00000000
11011111
11111001
00010001
00011101
11101010
10110001
11111100
11100101
11110110
00001101
00010000
11100000
11111000
00001101
11100000
00001111
11010001
00010010
11110011
11101011
00011111
00011110
00100101
00001110
11101110
11101010
00100110
11100000
00100011
11111010
00011001
11100111
00001010
00001110
00100101
11111010
11011111
00000110
11101110
00011100
00010000
11011110
11100001
11011100
11011110
11101111
11011111
11101001
11111110
11100100
00011000
11101000
11010100
11010100
11110011
00000100
00011101
00000010
00000011
11100110
11011101
00000001
11111111
00001011
00000000
11010101
11110110
00010111
00011100
11101011
11101100
00000010
11101001
11110001
00001001
11100001
11110101
11100110
11011110
11111010
11100001
11100011
00010001
11110100
00100010
11101111
00100100
00100011
00100001
00110111
00001000
00000100
00000010
00010111
00010100
11110111
00000111
00001000
11111001
11100000
11010101
00001111
00011001
11100101
11100111
11100100
11101010
00011111
11101001
00000111
11110011
11011110
11011000
11001000
11101001
00010011
00001010
11101011
00000001
11101010
11101110
11100001
11101100
00000110
00001000
11101000
11110110
11011101
00100001
11101101
00010110
00011101
00000110
11011101
11111010
11100010
00100011
00110010
11110011
00011100
11111110
11100101
00000000
00010111
11101011
11011100
11111011
11110011
00100100
11110101
11111100
00011100
00011010
11100101
00010000
11101101
00100101
11111010
00011000
00000010
00010100
00001000
00000111
11101011
11111111
00000100
11100001
11101110
00001001
00010101
00000101
11101111
11100100
11100000
00001100
00011011
11011111
11111000
00001000
11111011
11110001
11011110
00000101
11101110
00010110
00000100
00001011
00010101
00001001
00100011
00010001
00000111
00001110
11100111
11011010
11101100
11000111
11010010
11101001
00011101
00011001
00000110
00010011
11101001
00100010
11101100
00010111
00010011
00000001
00100110
00001010
11111101
11100100
11111010
00000000
11011000
00010111
11110000
00100001
11100010
00011111
01000001
00100110
00100000
11101001
11111111
11100001
00010001
11100010
11110001
00000001
11111111
00011101
00011100
00000101
11111110
11111100
00011110
00011110
11011011
11011110
00100011
11011111
00000100
10011101
11110100
11100001
11010011
00011110
11100101
11011110
11111001
00011101
00000001
11101110
11101101
00010011
00011010
11100111
00011000
00100000
00000001
11101100
00011000
00100010
11110110
11101100
00100101
11011110
11001001
11011100
00001110
00010101
11111001
00100010
00010000
11011101
11101000
00001111
00011110
11110001
11001000
11110111
00011011
00011001
11101100
11100101
11110100
11100010
11110001
00100010
00100001
11111111
11010011
00100110
11110011
11101001
00011010
00000110
11101111
00000011
00001101
00000111
00010001
00011100
00011101
11101100
00001101
00010011
00010011
00001110
00000010
00000100
00011101
00101011
00010000
00011100
00011011
00100010
00011011
11011111
11111001
11110001
00010101
11110100
11100111
00110101
00001111
00100000
11010101
00100111
00101000
11101100
00010101
00010011
11011001
11101011
11101010
11101111
11111011
11000010
00101100
00100100
11100110
11111001
00010011
00010110
11111111
00000010
00011001
00010101
00001101
00001111
11100011
00000001
11101000
00011110
11100111
11100100
11100100
00011101
00010100
00010111
11100000
00010001
11111010
11111101
11101000
11110011
00010110
11101101
11111011
11110100
11111011
11110000
00000110
00011100
00000001
00000001
00010011
00001000
00000000
00000001
11111111
11011110
00011010
00010111
00000011
00100001
11001101
11111111
00001110
11100111
00011111
00011100
