00010001
00000100
00000000
11110101
00000101
00000010
11111110
00001101
00000000
11111111
00001101
11111011
00000111
11110100
00000001
00001000
00000011
11110010
11111111
00000000
11111001
11111010
11111101
11110111
11111010
00000111
11110101
11111000
00001010
00000111
00000100
00000101
00001101
11110111
00001010
11110100
00000111
11111001
11111001
00001010
00000100
00001100
11111101
00000110
11111001
00001011
11111010
11110101
00000001
00001000
11110010
00001010
00001000
00000010
00000110
11111011
00000010
00001101
00001111
00000101
11111010
11111101
11110110
11111011
