00001100
00000101
11111001
00100100
11110011
11101010
00010000
00000100
00100111
11100100
11101110
00000111
11111000
11111001
11101110
00010011
11100011
11100010
11101010
00000011
00101000
11101000
11110100
11100010
11111110
11100011
11111001
00000101
11101011
11111010
00011101
11101101
11100001
00000111
00000111
00000011
11110101
00010101
00010010
11111010
00011111
00010011
00111001
11110001
11101010
00011100
11100101
00110100
